{"<s>":0,"<pad>":1,"</s>":2,"<unk>":3,"<mask>":4,"!":5,"\"":6,"#":7,"$":8,"%":9,"&":10,"'":11,"(":12,")":13,"*":14,"+":15,",":16,"-":17,".":18,"/":19,"0":20,"1":21,"2":22,"3":23,"4":24,"5":25,"6":26,"7":27,"8":28,"9":29,":":30,";":31,"<":32,"=":33,">":34,"?":35,"@":36,"A":37,"B":38,"C":39,"D":40,"E":41,"F":42,"G":43,"H":44,"I":45,"J":46,"K":47,"L":48,"M":49,"N":50,"O":51,"P":52,"Q":53,"R":54,"S":55,"T":56,"U":57,"V":58,"W":59,"X":60,"Y":61,"Z":62,"[":63,"\\":64,"]":65,"^":66,"_":67,"`":68,"a":69,"b":70,"c":71,"d":72,"e":73,"f":74,"g":75,"h":76,"i":77,"j":78,"k":79,"l":80,"m":81,"n":82,"o":83,"p":84,"q":85,"r":86,"s":87,"t":88,"u":89,"v":90,"w":91,"x":92,"y":93,"z":94,"{":95,"|":96,"}":97,"~":98,"¡":99,"¢":100,"£":101,"¤":102,"¥":103,"¦":104,"§":105,"¨":106,"©":107,"ª":108,"«":109,"¬":110,"®":111,"¯":112,"°":113,"±":114,"²":115,"³":116,"´":117,"µ":118,"¶":119,"·":120,"¸":121,"¹":122,"º":123,"»":124,"¼":125,"½":126,"¾":127,"¿":128,"À":129,"Á":130,"Â":131,"Ã":132,"Ä":133,"Å":134,"Æ":135,"Ç":136,"È":137,"É":138,"Ê":139,"Ë":140,"Ì":141,"Í":142,"Î":143,"Ï":144,"Ð":145,"Ñ":146,"Ò":147,"Ó":148,"Ô":149,"Õ":150,"Ö":151,"×":152,"Ø":153,"Ù":154,"Ú":155,"Û":156,"Ü":157,"Ý":158,"Þ":159,"ß":160,"à":161,"á":162,"â":163,"ã":164,"ä":165,"å":166,"æ":167,"ç":168,"è":169,"é":170,"ê":171,"ë":172,"ì":173,"í":174,"î":175,"ï":176,"ð":177,"ñ":178,"ò":179,"ó":180,"ô":181,"õ":182,"ö":183,"÷":184,"ø":185,"ù":186,"ú":187,"û":188,"ü":189,"ý":190,"þ":191,"ÿ":192,"Ā":193,"ā":194,"Ă":195,"ă":196,"Ą":197,"ą":198,"Ć":199,"ć":200,"Ĉ":201,"ĉ":202,"Ċ":203,"ċ":204,"Č":205,"č":206,"Ď":207,"ď":208,"Đ":209,"đ":210,"Ē":211,"ē":212,"Ĕ":213,"ĕ":214,"Ė":215,"ė":216,"Ę":217,"ę":218,"Ě":219,"ě":220,"Ĝ":221,"ĝ":222,"Ğ":223,"ğ":224,"Ġ":225,"ġ":226,"Ģ":227,"ģ":228,"Ĥ":229,"ĥ":230,"Ħ":231,"ħ":232,"Ĩ":233,"ĩ":234,"Ī":235,"ī":236,"Ĭ":237,"ĭ":238,"Į":239,"į":240,"İ":241,"ı":242,"Ĳ":243,"ĳ":244,"Ĵ":245,"ĵ":246,"Ķ":247,"ķ":248,"ĸ":249,"Ĺ":250,"ĺ":251,"Ļ":252,"ļ":253,"Ľ":254,"ľ":255,"Ŀ":256,"ŀ":257,"Ł":258,"ł":259,"Ń":260,"Ġd":261,"Ġ?":262,"Ġdb":263,"ur":264,"er":265,"ct":266,"uri":267,"Ġdbo":268,"in":269,"Ġ{":270,"Ġ}":271,"st":272,"le":273,"se":274,"her":275,"here":276,"where":277,"ĠĊ":278,"Ġwhere":279,"or":280,"lect":281,"Ġse":282,"Ġselect":283,"ist":284,"inct":285,"istinct":286,"pe":287,"Ġdistinct":288,"at":289,"re":290,"Ġdbr":291,"ia":292,"on":293,"ce":294,"ht":295,"org":296,"Ġ<":297,"db":298,"dia":299,"tp":300,"//":301,"://":302,"pedia":303,"http":304,"dbpedia":305,"so":306,"un":307,"ty":308,"an":309,"urce":310,"source":311,"Ġ;":312,"resource":313,"ion":314,"ar":315,"Ġa":316,"ate":317,"al":318,"co":319,"it":320,"th":321,"date":322,"il":323,"ation":324,"Ġ.":325,"ro":326,"lo":327,"unt":328,"type":329,"es":330,"of":331,"df":332,"rdf":333,"Ġrdf":334,"en":335,"am":336,"la":337,"ch":338,"li":339,"count":340,"ing":341,"der":342,"Ġas":343,"um":344,"ge":345,"(?":346,"po":347,"fil":348,"ry":349,"pro":350,"ity":351,"Ġ1":352,"Ġdbp":353,"ic":354,"to":355,"by":356,"ir":357,"mit":358,"order":359,"per":360,"Ġli":361,"Ġby":362,"Ġlimit":363,"num":364,"pla":365,"ter":366,"Ġorder":367,"is":368,"country":369,"Ġ(":370,"union":371,"loc":372,"off":373,"Ġask":374,"au":375,"de":376,"city":377,"Ġunion":378,"el":379,"place":380,"ber":381,"gu":382,"me":383,"ring":384,"Ġfil":385,"Ġfilter":386,"Ġdes":387,"set":388,"Ġdesc":389,"Ġoff":390,"Ġoffset":391,"are":392,"ed":393,"lan":394,"ul":395,"Ġ0":396,"bir":397,"star":398,"birth":399,"go":400,"gy":401,"the":402,"location":403,"ele":404,"proper":405,"property":406,"ig":407,"logy":408,"he":409,"ver":410,"onto":411,"pop":412,"film":413,"starring":414,"ontology":415,"ca":416,"man":417,"ra":418,"use":419,"Ġ)":420,"ran":421,"ye":422,"lea":423,"ent":424,"age":425,"bo":426,"Ġ\"":427,"state":428,"ild":429,"elev":430,"mp":431,"ok":432,"ri":433,"spo":434,"tal":435,"ve":436,"ctor":437,"thor":438,"ame":439,"author":440,"langu":441,"00":442,"ad":443,"du":444,"ger":445,"ke":446,"lin":447,"mo":448,"spouse":449,"language":450,"child":451,"number":452,"as":453,"di":454,"distinct":455,"elevation":456,"ik":457,"name":458,"par":459,"ub":460,"Ġ>":461,"und":462,"ulation":463,"birthplace":464,"population":465,"ain":466,"te":467,"ort":468,"ight":469,"year":470,"book":471,"fo":472,"ne":473,"str":474,"ath":475,"res":476,"unit":477,"death":478,"height":479,"united":480,"ac":481,"for":482,"oh":483,"port":484,"son":485,"wn":486,"ian":487,"all":488,"comp":489,"total":490,"states":491,"populationtotal":492,"ay":493,"air":494,"ho":495,"joh":496,"mar":497,"sity":498,"up":499,"vi":500,"area":501,"leader":502,"numberof":503,"_(":504,"ago":505,"bel":506,"cer":507,"den":508,"ren":509,"rector":510,"uni":511,"any":512,"arge":513,"alia":514,"rank":515,"german":516,"mount":517,"director":518,"company":519,"\")":520,"ab":521,"ies":522,"ime":523,"mu":524,"ser":525,"wik":526,"Ġre":527,"gex":528,"cap":529,"john":530,"germany":531,"Ġregex":532,"))":533,"be":534,"bat":535,"dge":536,"gro":537,"id":538,"ld":539,"lu":540,"ph":541,"pres":542,"rit":543,"sh":544,"sp":545,"sic":546,"war":547,"yer":548,"ine":549,"indu":550,"stry":551,"ater":552,"reat":553,"sof":554,"ite":555,"ital":556,"ill":557,"Ġasc":558,"austr":559,"birthdate":560,"cave":561,"industry":562,"australia":563,"19":564,"act":565,"actor":566,"eur":567,"est":568,"ls":569,"mam":570,"no":571,"ram":572,"ss":573,"tle":574,"yago":575,"ste":576,"one":577,"and":578,"almam":579,"lake":580,"produ":581,"person":582,"team":583,"found":584,"deathplace":585,"numberofe":586,"univer":587,"mountain":588,"music":589,"capital":590,"almamater":591,"ag":592,"ak":593,"ap":594,"ba":595,"bu":596,"cy":597,"creat":598,"des":599,"if":600,"large":601,"mer":602,"ming":603,"ng":604,"pub":605,"ru":606,"sd":607,"ta":608,"time":609,"xsd":610,"inf":611,"ama":612,"land":613,"airport":614,"wikic":615,"university":616,"creator":617,"publi":618,"\"@":619,"._":620,"01":621,"cur":622,"cor":623,"car":624,"cup":625,"do":626,"dis":627,"gram":628,"ham":629,"ken":630,"min":631,"ment":632,"ner":633,"og":634,"otal":635,"qu":636,"writ":637,"will":638,"zone":639,"Ġyago":640,"string":641,"atotal":642,"iam":643,"arch":644,"col":645,"loye":646,"ence":647,"ames":648,"label":649,"pol":650,"program":651,"player":652,"gue":653,"areatotal":654,"mploye":655,"rency":656,"series":657,"battle":658,"euro":659,"timezone":660,"currency":661,"writer":662,"william":663,"mployees":664,"ace":665,"bs":666,"bur":667,"bre":668,"bro":669,"bul":670,"bri":671,"ball":672,"band":673,"can":674,"ccup":675,"din":676,"dan":677,"ft":678,"ie":679,"im":680,"ip":681,"ky":682,"lor":683,"nt":684,"nation":685,"os":686,"own":687,"occup":688,"pri":689,"sw":690,"spe":691,"ts":692,"tion":693,"tit":694,"vis":695,"we":696,"Ġ'":697,"ley":698,"leng":699,"sedate":700,"atstate":701,"relea":702,"organ":703,"soc":704,"atedin":705,"com":706,"loper":707,"ess":708,"lig":709,"icia":710,"locatedin":711,"officia":712,"deve":713,"theunited":714,"raft":715,"league":716,"party":717,"new":718,"ack":719,"density":720,"ident":721,"luence":722,"phy":723,"president":724,"spain":725,"softheunited":726,"producer":727,"foundation":728,"largest":729,"influence":730,"wikicatstate":731,"bridge":732,"owner":733,"occupation":734,"spec":735,"length":736,"releasedate":737,"locatedinarea":738,"developer":739,"softheunitedstates":740,"wikicatstatesoftheunitedstates":741,"'^":742,"av":743,"awar":744,"border":745,"bama":746,"ck":747,"cla":748,"ear":749,"frank":750,"gi":751,"gen":752,"games":753,"hal":754,"ire":755,"iso":756,"ico":757,"je":758,"kno":759,"mi":760,"ned":761,"ot":762,"obama":763,"pare":764,"piso":765,"ric":766,"sher":767,"sky":768,"tist":769,"ton":770,"telev":771,"targe":772,"tairport":773,"uta":774,"ven":775,"wo":776,"xico":777,"yn":778,"yor":779,"ze":780,"Ġ!":781,"Ġ2":782,"Ġcount":783,"istan":784,"pean":785,"dby":786,"ance":787,"ange":788,"artist":789,"rome":790,"che":791,"lid":792,"prof":793,"ision":794,"mexico":795,"gover":796,"raham":797,"rance":798,"ket":799,"lincol":800,"paris":801,"Ġ>=":802,"foun":803,"iance":804,"alliance":805,"airlin":806,"mark":807,"denmark":808,"abraham":809,"dget":810,"ground":811,"group":812,"itect":813,"numberofemployees":814,"numberofepiso":815,"ages":816,"budget":817,"minglanguage":818,"publisher":819,"core":820,"kenned":821,"architect":822,"programminglanguage":823,"national":824,"soccer":825,"official":826,"largestcity":827,"'^^":828,"award":829,"genre":830,"parent":831,"television":832,"targetairport":833,"utah":834,"york":835,"govern":836,"lincoln":837,"numberofepisodes":838,"kennedy":839,"201":840,"af":841,"aq":842,"ast":843,"ach":844,"ager":845,"bor":846,"bon":847,"bar":848,"ben":849,"bum":850,"bas":851,"bru":852,"cl":853,"cher":854,"con":855,"craft":856,"eg":857,"et":858,"eth":859,"ethe":860,"fam":861,"fif":862,"har":863,"hav":864,"ile":865,"ise":866,"ice":867,"iel":868,"jul":869,"jap":870,"king":871,"kel":872,"mation":873,"mis":874,"muse":875,"mad":876,"may":877,"muni":878,"non":879,"pre":880,"pill":881,"rist":882,"ron":883,"runt":884,"rum":885,"sy":886,"sse":887,"sub":888,"sho":889,"tw":890,"tor":891,"tel":892,"trum":893,"uc":894,"uz":895,"vation":896,"wer":897,"wor":898,"wine":899,"west":900,"Ġgroup":901,"Ġhav":902,"eral":903,"ince":904,"instr":905,"ster":906,"levation":907,"herelevation":908,"pen":909,"atner":910,"ree":911,"cess":912,"unch":913,"ang":914,"ard":915,"ars":916,"ary":917,"arter":918,"ali":919,"alber":920,"alay":921,"album":922,"colo":923,"iter":924,"itor":925,"itic":926,"ily":927,"roy":928,"Ġrdfs":929,"amin":930,"launch":931,"chic":932,"chel":933,"christ":934,"lish":935,"ingyear":936,"ument":937,"poser":938,"proj":939,"ica":940,"tom":941,"town":942,"iraq":943,"isation":944,"elvis":945,"berg":946,"berlin":947,"guy":948,"ult":949,"gold":950,"goethe":951,"igner":952,"head":953,"rayer":954,"raphy":955,"entrance":956,"Ġ\"^":957,"rid":958,"000":959,"ada":960,"park":961,"part":962,"books":963,"net":964,"result":965,"deathdate":966,"ford":967,"formation":968,"portrayer":969,"wnfor":970,"holid":971,"vide":972,"leadername":973,"presley":974,"shatner":975,"softw":976,"nobel":977,"stein":978,"steven":979,"musical":980,"baik":981,"designer":982,"iff":983,"merkel":984,"public":985,"carbs":986,"mineral":987,"menttype":988,"ography":989,"quarter":990,"politic":991,"european":992,"burj":993,"bulls":994,"ballplayer":995,"canada":996,"prize":997,"tiondate":998,"title":999,"organisation":1000,"composer":1001,"densityrank":1002,"foundationplace":1003,"influenced":1004,"species":1005,"class":1006,"earth":1007,"ject":1008,"knownfor":1009,"otherelevation":1010,"Ġ!=":1011,"angela":1012,"ketballplayer":1013,"founde":1014,"airline":1015,"nationality":1016,"soccercl":1017,"officiallanguage":1018,"televisionsho":1019,"governmenttype":1020,"barack":1021,"basketballplayer":1022,"bruce":1023,"family":1024,"japan":1025,"miss":1026,"museum":1027,"mayor":1028,"munich":1029,"pillars":1030,"runtime":1031,"world":1032,"Ġhaving":1033,"instrument":1034,"chicago":1035,"headquarter":1036,"holiday":1037,"software":1038,"soccerclub":1039,"televisionshow":1040,"\",":1041,",_":1042,".>":1043,"12":1044,"14":1045,"28":1046,"29":1047,"31":1048,"50":1049,"78":1050,"_%":1051,"ader":1052,"astr":1053,"apol":1054,"bn":1055,"bia":1056,"bra":1057,"cr":1058,"cro":1059,"cam":1060,"cau":1061,"clin":1062,"cru":1063,"cali":1064,"don":1065,"dar":1066,"dlabel":1067,"draft":1068,"drome":1069,"ein":1070,"ese":1071,"een":1072,"ever":1073,"employees":1074,"east":1075,"fe":1076,"ff":1077,"flo":1078,"fir":1079,"fran":1080,"fren":1081,"fact":1082,"gh":1083,"gm":1084,"gin":1085,"gal":1086,"gare":1087,"game":1088,"great":1089,"gang":1090,"hig":1091,"hab":1092,"him":1093,"ib":1094,"iz":1095,"ide":1096,"ive":1097,"iden":1098,"jack":1099,"jamin":1100,"ka":1101,"ker":1102,"lcity":1103,"llor":1104,"lyn":1105,"liter":1106,"ma":1107,"ms":1108,"mon":1109,"mun":1110,"mel":1111,"mas":1112,"mund":1113,"mine":1114,"ni":1115,"nat":1116,"nia":1117,"nic":1118,"nter":1119,"nik":1120,"od":1121,"ol":1122,"ou":1123,"oper":1124,"pr":1125,"pt":1126,"pal":1127,"pran":1128,"pad":1129,"pages":1130,"piraq":1131,"slo":1132,"sch":1133,"smo":1134,"site":1135,"score":1136,"suc":1137,"tv":1138,"tur":1139,"tter":1140,"tis":1141,"tele":1142,"tarea":1143,"ute":1144,"ufact":1145,"van":1146,"ww":1147,"win":1148,"wal":1149,"zer":1150,"Ġ3":1151,"Ġ8":1152,"Ġ=":1153,"Ġxsd":1154,"ure":1155,"urer":1156,"ural":1157,"cts":1158,"ction":1159,"ina":1160,"inte":1161,"inhab":1162,"sting":1163,"stad":1164,"leon":1165,"letiondate":1166,"seas":1167,"herland":1168,"ory":1169,"orcount":1170,"orig":1171,"pet":1172,"peace":1173,"ating":1174,"atic":1175,"atcher":1176,"rea":1177,"real":1178,"redi":1179,"recor":1180,"republic":1181,"resting":1182,"onur":1183,"onau":1184,"onnumber":1185,"sopran":1186,"ank":1187,"ann":1188,"ant":1189,"anic":1190,"ants":1191,"sourcecountry":1192,"ara":1193,"ald":1194,"alty":1195,"alie":1196,"cover":1197,"cosmo":1198,"itzer":1199,"itants":1200,"thron":1201,"thatcher":1202,"rober":1203,"roach":1204,"route":1205,"low":1206,"end":1207,"ams":1208,"last":1209,"cho":1210,"chie":1211,"chess":1212,"chance":1213,"chard":1214,"china":1215,"ingdate":1216,"ingredi":1217,"pope":1218,"Ġ10":1219,"Ġ100":1220,"ication":1221,"tower":1222,"perl":1223,"ish":1224,"ispart":1225,"office":1226,"guin":1227,"metown":1228,"eden":1229,"edire":1230,"editor":1231,"birthname":1232,"locationcountry":1233,"locationcity":1234,"vertis":1235,"manufact":1236,"bour":1237,"ilding":1238,"oklyn":1239,"river":1240,"richard":1241,"advertis":1242,"key":1243,"link":1244,"motor":1245,"languagefamily":1246,"children":1247,"years":1248,"ney":1249,"residen":1250,"deathcau":1251,"fornia":1252,"portman":1253,"completiondate":1254,"hometown":1255,"johann":1256,"margare":1257,"vice":1258,"viation":1259,"numberofpages":1260,"belgi":1261,"abbre":1262,"wikip":1263,"beer":1264,"begin":1265,"batman":1266,"ritchie":1267,"199":1268,"1950":1269,"action":1270,"actica":1271,"active":1272,"ssia":1273,"product":1274,"foundingyear":1275,"mountains":1276,"musicby":1277,"musiccomposer":1278,"apon":1279,"bale":1280,"building":1281,"russia":1282,"inflow":1283,"wikicate":1284,"dom":1285,"discover":1286,"minist":1287,"ogame":1288,"queen":1289,"programme":1290,"battlestar":1291,"europop":1292,"writers":1293,"burton":1294,"brown":1295,"brooklyn":1296,"bandleader":1297,"switzer":1298,"sweden":1299,"titanic":1300,"weapon":1301,"organiz":1302,"commun":1303,"ession":1304,"light":1305,"influencedby":1306,"specia":1307,"franklin":1308,"michel":1309,"rick":1310,"skyteam":1311,"wood":1312,"istanbul":1313,"profit":1314,"profession":1315,"afric":1316,"ageredire":1317,"benjamin":1318,"ethnic":1319,"julia":1320,"kingdom":1321,"madrid":1322,"nonprofit":1323,"syl":1324,"sses":1325,"subject":1326,"trumpet":1327,"uzi":1328,"cessor":1329,"albert":1330,"alayas":1331,"colom":1332,"royalty":1333,"launchpad":1334,"christian":1335,"netherland":1336,"formationyear":1337,"videogame":1338,"stevens":1339,"baikonur":1340,"politician":1341,"foundedby":1342,"mission":1343,"astronau":1344,"apollo":1345,"crosses":1346,"clint":1347,"cruise":1348,"california":1349,"draftteam":1350,"einstein":1351,"everest":1352,"eastwood":1353,"floorcount":1354,"first":1355,"franc":1356,"french":1357,"gmt":1358,"galactica":1359,"himalayas":1360,"monarch":1361,"natalie":1362,"prince":1363,"successor":1364,"turk":1365,"telecommun":1366,"integer":1367,"inhabitants":1368,"seasonnumber":1369,"origin":1370,"recordlabel":1371,"restingplace":1372,"sopranos":1373,"cosmodrome":1374,"thrones":1375,"roberts":1376,"chancellor":1377,"ingredient":1378,"ispartof":1379,"manufacturer":1380,"advertising":1381,"residence":1382,"deathcause":1383,"margaret":1384,"belgium":1385,"abbreviation":1386,"wikipageredire":1387,"discoverer":1388,"switzerland":1389,"organization":1390,"michelle":1391,"netherlands":1392,"astronaut":1393,"telecommunication":1394,"wikipageredirects":1395}